memory_initialization_radix=2;
memory_initialization_vector=
1111111110011101100111110111,
0011111001110100000000000000,
1111111001100000000000011100,
0111000110111111111000101111,
0000010111101100000001101111,
1111000110111111011000001111,
1111011000000000111000001100,
1111111110111000001001010111,
1111111000010011111111111000,
0001000011010011111111110011,
1011111110000011111111111111,
1110110101110011111001111100,
0100000110011111101111011001,
1110001000011011101111111000,
0001000101111011010011001110,
0100111010011100000001111110,
0100010010001011111111111111,
1001011000011111111110000011,
0111111111111111000111111011,
1110000001111111111110001110,
1100001100011100111111100111,
0000001001111001111111100001,
0000000111111111111111111111,
1111111000111011100111111111,
1111111110000001111010000101,
0000001100001111110100000011,
1110011111010101110010101011,
1111111111101000011100001010,
1100000111011111101100010101,
0001111100101100011110000011,
0000001111111010111100110111,
0011111000001000011111111111,
0100011010111000111000011111,
1110000111000011110001111111,
1101100111000111101010001101,
0000111111011000011101110111,
1100011000000000011000111110,
0111000110010101111001111000,
0001000111000111011010011110,
1101111111110111000011101110,
1111110110001111111110000011,
1110001000100001111110000111,
0101011010100011111111111001,
0111001111110001011111111001,
0001111010001111001110100111,
0001011011111100011100000011,
0101100111101111011001111101,
1001111011111100111111111101,
0110001000111111110101110000,
1010000111111100110100111110,
1111010001000001100010001011,
0000100001111100011110001111,
1011001000000011111100011110,
1111101011111100100010011100,
1111111001111101110101010111,
0011011111111011100111111011,
1111100101110101011110010000,
0011100000000011111111001111,
1111111111100011110100111000,
0011011000101100011110010000,
1111111111111011101110000011,
0000111001111000011110000011,
1111100111101100100000111110,
0010010111111100010111111111,
0010111111100101100000111111,
0001111111000011111111110000,
1011111011100011111110000000,
1000011111111100010011101111,
1110001111001100000000011111,
1000001101001111100011111100,
1010011111111001100111111000,
1111111101010001110000011111,
1010100011100011101110000000,
1111111000000010100100000011,
0010010010111101101111111110,
0110111001001110111111000000,
0000101111101111111111110100,
1000001111111101000011110010,
0011011111111000011111110000,
1010011111010011111101011000,
;