memory_initialization_radix=2;
memory_initialization_vector=
1111111000000100000001111100,
1001111110110000000001101110,
0111111110110011011000011110,
0110111001010011110010111110,
1111111110000011000001111110,
1000100110001111100001100001,
1100000001111100111101111011,
1000110100001101111111100011,
1010110110000001000000111111,
1110010111100011001101111000,
0000000111111100111111000000,
1000000100000011111111100000,
1111100011111101111111111101,
1111100000111001111111000010,
0000000011111100111111111000,
0010100000000001110110000000,
1111110110001111000110111111,
0100100000100010000011101000,
0111111000000110000001111111,
0000000000000010000010000000,
0000010100000010000011111111,
1001000100000010000010000000,
1110000011111101101111110000,
1110000111000000111010110010,
1000000011000001100001100001,
0110000000100011110000101000,
0000111111111111111110000001,
0100111100011111111110000011,
1000111011111001111101111111,
0001110000011001111100000111,
1111000001111100101111111000,
1110001111000100111001110000,
;