0100011110111010000000000001
1000100011110111000000010011
1101011010100010000100001000
1111111010100001111100010110
1111100110111000100101111011
0010000011100000111100110000
1111111000110000010111111000
0111001010101111101101000000
1000111110100001000000000000
1111000101000011100001111011
1001001001110111100110000001
0111000001010011111101110001
1100010100101001100110111110
0011001111100000100100010000
0111110110110011010001110110
1110111100101111110100001101
1110010011100000000101100101
0000000001100000000101000000
1101000011000000111110100100
1100011010111010011111101010
1001110110000000001110000100
1111111100000011111110111011
1111111111100010000011111100
1100001110011111011110011111
1100111111001011101101000011
0110000100001101000001011111
1100001000001000111110010111
1111001100001000110010011001
1111110100010001111011110111
0001101001100001001110011000
1001100000001101001111001011
1001100000011000011111100110
0000011011100011001001110000
1000001111000100011111110001
0101011110000010100111110111
1111111111110011111111100000
1110010101101111000101110010
1100110001111111000001100000
0111000010011001111011010010
1101110011000110110110101001
0011000111000001000111101101
0001111111011011111110010000
0001001110101111000010100010
0111001111111011100111100100
0011011001001111001111111000
1110001001111111101111100000
0111001100111000101100110011
0000110001110111100110110111
0000100111000001000111101111
0010011111001100000011110110
0000011100011000000110001100
1001110110111100000001111000
0000101011110111000000100000
1111000011111111000111110000
0001110000000111111100101001
0000010110011000000001111010
0001111011110010001111111110
1000111110100000011111111100
0010110001110010110000111111
0000101111001111100001101110
1000000011100111111001101111
1110001001111110011011100000
0100001011111000101111000001
0000000000110011011001110111
0000011000110001011101110010
1101110000110111111111000111
0001001000000010101110101000
1111111111000000000111100100
1111111111001000010111111101
1010000010000011100001000000
1110010000100011001101110000
1100000000110110100111001100
0011000111110100110111011100
1010011110111010000111110010
0111000000100000001010011010
1010001100011111000010100010
1000001011110111100000001100
0110111101001100000111111100
0011101011110011111100110001
0100101110000000110011110011
1000100001100001110000011001
0100000110000110000001110010
1000100111001010000000110000
0010000000001111100100111111
0000000001000011100001000110
0100011001100100000011111011
0000010110001101111100100000
0010011110010000000000111101
1000110001101001110101110100
0011100111101000100001111000
1110100101110101110010000100
1001001001101000011110110011
1101100110100000100000000110
1111001000100001110001111000
0100000111010001011000001001
0100111100010110110000010110
1111001001111000011010010010
0001111001111011000111100111
1111000001010001100110011100
1110000001001000001110000011
1000110110001100110100000011
0001100110000000011100111111
1100000011110011000000010011
0111000110000010000000001011
0101001110000001010000100011
0101100000010001011000011100
0001101000101101001011111100
1011000111000000111110011000
1100000100000101011011110001
0001001111001110000000001000
1111100010110111000111111010
0001001100110010011001011100
0010011000110010010000010110
1111000110100111100110011100
0011100001011100111110111000
0111000100001100000010000010
0111111011010100011001010001
0101101110010100011100001000
0011100000000011000010111000
1100000000110101000011111000
0111110010101111111101010000
1111000101000101000110000111
0100000100000111100011111001
1011001100000111011010000111
1100000110000011001100011110
0010000110000111110001011110
1110100110000000000011111010
1110010010010110100001001110
0000100111100011111001110110
0111010100001101111001110111
1010000110011011110001110110
0000000111001100010001010110
0100000000010011000110000110
0101001000010010000011111011
0101110011001000110000011000
0000011011000010000001111011
0000111100011110000001110001
1000011101110001100000000011
1000111010100001110001010011
1110111001100100010000000001
1110001110001111100010000100
1001110111111100000000001100
1100101111110000100011000111
1101110110000011000010000001
1110110101000100111000101101
1101110000000000011000000000
1110111001110100101100000110
1101111111110000000100111010
0101111110111100110011100100
0000000010000011111000001000
1100111000110010010001001110
0010010100011011110000011010
1000111111000110000100000001
1101100111101111010010001110
1100010000000100111111001110
1101100110000101111110110000
1111111100010000011100110011
0000011111101100001110001100
0001111000001110010011110110
1100010110001110011111011000
0111100111010001000110001100
0001111111000011110110111001
0011000111101011000111100001
0111011111110011001000000111
1100001000110110101111100000
0100000001100010110110000000
1100011001110001111000000111
0000011011000100000111000111
1111011000100000000101110011
1111100100100011011110000101
1111111110001110000110010000
1011001011100011001111001010
1111100111100001100010100111
0101001111101011100000000011
1011100010010011101001111110
1111001110101100000000011000
1011100000010001001010000101
1110100110010001111010001111
1001100011110000111110111100
1011011001001000000111110011
1011111101110000001111001101
0000011110000000001110001110
0011101010110011001010011010
1100011111101100101110111001
0010000111100011001001111010
0001001111000010110010110000
0010001111011011001100111011
1110111111111101000011000000
1110001011000111101001110000
1000110011111111101111100001
1000111001111101111100000111
0001110111111111110111011101
0001111000000100000001111100
0011101100001100001111011111
1000011111100110011000000111
0000011001101110000011000000
0000011001100000110111001011
0000010111011100100010001000
1111011111000111100000111110
0111110100000010000100000110
0001101111000011111101001100
1110011111011100010010011100
0001001100110000000001111111
1001101110111100000000011100
1000001001110111000000100100
1010100000111110001011010000
0101101010100011111101010000
0000010101010000000011110110
0001111100000000111110110000
1001110001101100001111111111
0010111011010101000000011111
0111001100000010000000111110
1111111110011111111101111111
1100000010100111111001100000
0100001011111000000011000101
1101000110000001111110000101
1110111111000111000100101000
1100000100001101101111111001
1110011100001101111110000111
0101110100000111111110111111
1101111110000010001011110111
1001011011111110001110000001
1100111000001101000111001000
0000110011000100011111000001
0010011111001110110000100010
1011000111101010100011000011
1110001000000111111110001110
1100001110001101100111000011
1111111111100100111101100111
1001111001000100000010001001
1100000010001111000011101100
0011100101000011001101000100
1110011100000000011110111110
0001111100010111110001000000
0101011111001111100011000000
1011111000110011101111100001
0111101111101000010010000011
0000101111001000011100000011
0011110011101111100110110001
0011011110011111001010101100
0000000011111011100011110111
0001001111110000000001100100
1001101110011111100000001001
1000011111111100001001111010
1011000100110011100000011000
1111011000000101100011110001
0000010001100011111101011000
0100111100011101110000010011
1000111100000011001000111011
1100000100101100100000000000
1010111011100011111000000110
0110010101001000011000011011
1111111111110100010001000001
1100100000000011111011011000
1010000000000000011100100111
1111111011110101111111001101
1011111111100010001100110000
1101110010110011100111001110
0011101010010000011110000111
1110010111101000001111111100
0010011111010000001110010011
1100000110000100111110001110
0010111000110011100101110111
1101110100010000000111001001
0001100111011111111111101111
1111100111011100111011010111
0001101111000110110001111111
0110000111011100110001111110
0110000000101011101111001101
0001000000000011100010110001
0000010111111000111000010100
0111000011000011001000110011
0000111100110011100001000001
1011000100100011100110000111
1111000101100011110111111001
1110001111000011010010000010
1111100111110100101100011110
1100011100000011110001000101
0111110101100010100001101000
1110111111001100001101000000
1111100001101000000110000110
0010111001100011101000001111
1010000001010011100111010110
1110001001001111100010000111
1110001000110100011010110100
0011100101100011000010001111
1101001101100000110000001011
0011100001100010000110010011
1001110111111011111110111100
1111111110000111001110011000
0110000011000011100111111110
1000100110111011000001001101
1110110110001010010001111111
1000001011100010010011000000
1110110110111011010101000000
0000100101110011100001011000
1000000011000100100101100000
0000010111100001111100111000
1100100101011010001111010000
1100011011000110011111100111
1001001100000101110001100000
0000111001111101100000111101
1101001001100011101101001001
0111011100011010000110001111
1110001010010101100001100001
1111111001010011100010010101
1110111011010100111100000000
1101100010010000111110110000
1011111111110001100011111001
0011011111111101100010011011
1001111011011111101011011111
0111000110100100111111101001
1111010000001101000010010011
1100001001000100001101010110
1100100001111100111001110111
0111100000000111011001111111
1100000100100000001010101100
1100111101100101010010000011
1111110111011110011001110010
0110111000110011100001000111
0010011111001111001000011000
1101000111001111000011100000
1011011001111000011101101100
0110111010011111101101010100
1111011111000000010000110011
1101100100100100111100010010
0110001010101111010001100110
1000101111001111000111001100
0011011110110100100100010110
0011000110001100100110111100
0011101000001000000110000111
0111100110001100000010000001
0011011011110000100000110001
1011100111101100000100011001
0011100101101111100111111101
0101101011000001100011110000
0111111000110101110001110001
1100100001010011000110001111
0101001001000110001110110100
1111111101110100001110001110
1001111111001100111000101001
1001111100001101111000001001
1100001100000110110011000011
1100100011111000011110010000
0101011111110011001101100001
1010111011100111111110001111
1111010100000111001111010000
1110100100100011011010001100
1110100111010111111000101110
1110101111100001110000000111
1110110000000010100011101010
1100100111000111101111001000
1011100001111011011110000000
1100001000011011010011110111
1111100000110000000110111100
0101001000010000000100100011
0111111111100100101110000101
0010011110110000101100000010
0111000001111011100111110011
1100100110001001111111000001
1100111101110001110001100001
0011100111100000100110010111
1100001110000001011111010010
1001111111110100000010100101
1001111100011000101000111101
0010110011011101111000010001
1000100000000001001000000011
0001000001111110001110011100
0001111111010011110000000001
1111000110000011011000001001
0101100000001000111101001000
1010000110011000101000110010
1110110100001111100010111100
0010001110010011000010010011
0011101110111011001110111110
0000001100111010100001000000
0000000100000000011110010111
0011100111000011111001100000
1100110010011010001110010000
1000100100000111111100100011
1001100010101001000111100000
0000001111010000001010011111
1011110001010011101101011101
0010011110011000011110101101
1110100001111000111001111001
0011110111111000001111000111
1110011111101100001100111100
1000100001111100100101111011
0011110001001101010111101111
0011000111000011001000001111
0000101111111110101110000011
0011010100011010101101111000
0001110000011001101001110011
1101100000011011100111010100
1001000000011111111100101110
1110111010010010111111111010
1110100100110001110010001100
0011001100110000111110011011
1101101000011100011111110000
0010001110001111001110110101
0000111100111000110010011101
1001001100110001100110010010
0001011001110011001000011100
0101111100011100001101110011
1100111111110101111001111110
1010000000110000111011110001
0010111000110110011001101101
0011011000111101111101001110
1101110001001111001000111001
1100100011011011000000000111
1100100110000011001100100110
1100010000000011000001001011
1100111001001000011011000101
0011011111000000011000011010
1111000111001011011000110000
0100110101010011100101011110
1111011000001100000110000101
0010011001111101101110100111
0111000001100110110111100111
0110001000001110110011000111
0110001001010000010011000000
0001111111100000000100001101
1110100000100110011101011001
1010011011100001010010101000
1100101100000001000000001000
0111010001000011000001111001
0100101000000000101000000000
0001100101100000101011101100
0010101111100000111001001011
0010110110000001111000010000
0000010011110000011000011111
0100000001010100111110000101
0010000001100011100000000001
1110000001000111001100011001
0011100001010101111101110001
0111100000001100010101110011
0111100110011000001100100111
0100111101100100011010001100
0111100101110111001001111010
0001111010100011110001100110
1111100000001100001111100111
0000011000111100000010111000
1100100111100101110000101111
0011100000101010000001001010
1001110010000000001101111001
1010110011010100011111100111
1110000110011111010111100100
1101110100000111000001011101
1100100001000011001111000000
1100110111010110110001110110
1011100011111010000000100001
0000011000000010101001010100
0000000110000001111111100000
0010111111111100001100000001
0000000110100011110111100011
1111111111101000001000011110
0111011010000111100100011100
1100111001010011000001001001
0101001001100000001111010001
1011111010100100001101100100
0000111111001110001110010001
1100010100010000001111100110
0111001100100010110001110110
1000111000111000101111100011
0001111100011010100101100000
0001110100001000101110000111
0000111101000001101111011010
0011110111000010000011100000
1000111110010100101000110100
1001100001111000100001001000
0111111000100011100111001110
1111100001010010001101100110
0111101110010011010101111100
1111111100010011011001111110
0111101100100000000011110100
0111011110100001000111011111
0001001111101110000001011010
1100111111110100001110000100
0011001000110011111000110110
0000000110101100000111111011
0111011101110100001010011011
0011100011101100011111101111
0100100001001110001100011111
1001011000100101111100110111
1001111100111100111010001111
1010000000100101110001111011
1101011111011100101110000110
0100001000000110111110001100
0111100001000010001111011111
1110111001111001000100010011
0011000111111011100001111001
0110010100000011001111100101
0110000111111010111110111001
1000000101100011111110101111
0111111101111010100101111111
1100111011011011110101111111
1010111000001100010110101110
1000011001101010110010110011
1111111000110011110000000000
1110000000000010101011010011
1110111011001111100111000111
0101111000100010000001111111
0011000000000000100000010000
0000011001100011110000000111
0111101100111000000100111000
1111011101101011100101000100
0111101000110000001110000000
0111101101110000001111110010
1000111111110000000000011001
0000110110110000011100001110
0110001010001011000001100101
1101110100011100001111110011
