0001000000000001111000011110
0001000011000010001000000100
1000000000100000110000001000
1001100010111000010000011101
0001100110000000011000000110
0001110101100000011101000001
0000100000100000001000001100
1001110011010000000000001000
0100011000111100100101100000
1100011110100011110000001000
0101111010001111110001100000
1111000111000000001110001111
0010111100000010100010111110
0000111110010000000000000111
1110001111001100011010000111
0111000101100101110101011001
0010100011111011001100010000
0111000111011000000110011111
0011110011100000011100001000
0010010001111011111011100100
0000101001111100111100000111
0011110000010100001110011000
0111100011000010000001110000
0011111000111010111110011111
0001111100011100001110111110
0111101001111000000010011111
0000011001011001101110110111
0001101001111000001111101010
1001111000000100111110000111
0000011011000110100110000110
0011011000010011100011101100
0001101000011000111110010011
0111100111111011100001010000
0011001110001111000110011111
0110011001101001111110000001
1010100000101111110011110010
0100011101111100011010101000
1111100010111111000010111010
1101000110000101111111111000
0011010010001000010000110010
0100011000001111011111000010
1000110111111100000001101001
0000011000011111100001110101
1011000111110000001111101001
1010001000000100100010011000
0000011110000011111110000111
0110001111110001010111111111
1000101111000010011001111000
1000100111100011110111000000
0000000110000100100011000011
0100110100110000101110000000
1110010000001011100001110000
1110000000111101000111111000
1111100000001111100000110110
0010000100110001011111100000
1101011110000010000000111000
0001001001111111000110000110
1000000110000000000011000000
0100000011111100001100111100
1001110011100010101001110000
0110010000000001100111100110
0001111000000000100001000000
0100000011111100111101110000
1000010110000010001110000000
0000101000001101101000000011
0000001011111011000000000110
1100001001000001111010011111
1100000111100001100110000110
0001011111000000010000000100
1000011111000000011101000001
1000000100011110101000010011
0000000011011000000000010001
0011011000001100000101111000
0010111000011100011001000011
0000111011011100000001111101
0011010001101011001111101111
0000111000000000110110000110
0110011001110010001110000011
0011101111110101100011100111
0000011000110100000001010000
0011000011110011000000110000
1100000000100011011111111001
1000001011010111100110100001
1010000011000001001001110000
0100100100000100100000000000
0011100111111100010000100000
0011000110111110000101101000
1001001101101111000011101011
0010001111111100111101111000
0010011100111000011000010111
0011011011000100000110010011
0011000100110001000111100111
1000111001100010010010001001
0111011000011101000110000011
0111000011000001111011100011
0010010100110000111110001110
1110010000011100011110000000
1000000000111111000000111111
1100000001000000011110010001
0110010100011000001010010001
0011101011110111011001010000
1000001111001011000001100001
1001100111100011100100010001
0011111011100001111011101001
1001011000111100010101010001
1110000001110011100110111100
1010001111011001100001000110
0101001111100000011110100000
1010000010011111110000001111
0000111011000100111110000011
1111001111110000100111000101
0001100110110001110011110001
1001000110000010000000011001
1000000000000001110010111111
1111001000000111000010000000
0010001000000000000000000000
0000000110011100000001101111
1111010110000111010001110000
0100000010100111011111000001
0000001001100001011110100011
0000110100010000000110001110
0001110001101100000000000111
0000110011111000011110111110
0000011011001100110000000000
0000000000110001001111000000
1111000000110010000001111000
0000111011110000111011001000
0000111000001110001110000111
1100001100001100110111000000
1110000001101111100001101110
1110000111000101111100011101
1100000001100000001010110001
1100100011000011000001000100
0000000111111110011101111001
1100000111000011000111010001
1000000011000010000001111001
1000000111000010001110010010
0011110011011111101000000011
1111000100000011111110001110
0100101100111110010000100000
1100001111100010001111100000
1101000111011010111111111000
1000011000111111101100100000
0110011001010001101111100110
0000010001111000001111111110
0010110111101100001001100000
0000110011110001001110111100
0010110101001000101001111001
0110000000010011110100000111
0000011111100001100000000000
0111010111110001111100001000
0001011110101100001101000000
1001100000000001010010001100
0011000011100011000001111000
1001100100100011100000011000
1001010100100100000010011000
0010010111000010111000000111
1000000111000000111110000000
1011100001110111001010001100
1101001010100011010001110000
1011100110000100001100111100
0110100110011011111110111111
1100100111000001011100111101
1011111100000100000000101001
0011101011111110110100011011
1000000111100000110110000111
0011110111111011011100000101
0110100011100101111100101111
1010011011100111000110001111
0000011101110100001001001010
0010011100100100101100000101
0010110001000001101111100111
1110111000000000011011111111
0011111000100011001110110011
0000101101000000111111100111
1101110100111100100000001000
0011100001110000000001011100
0011100011100000011001111111
0000111000000011001110111100
1000110001100100111000000000
0010100110011110100000000000
0011111111011111110000011100
0001110010100011001110101100
1100010110000111001101111111
1110010000000000100110011111
1111111111111100011011111110
0000001111111011101011111111
0111001101001111000001101100
1010000001110000111110000001
0010000110111100100010000000
0101111111111111001011111100
0101101100101111111001101111
1101110000001100011100000011
1101000000101110110111111111
1110111000011011101000001111
1100101100011000000110000111
0000000111110010001101000001
1110011111110100000101110111
0000011000100001110010001110
0100101001100111001111111100
0100011000000111101000011011
0010011010111100110000001111
0001011011001101111001110011
0011000001110101101111001111
0000110000100000100011000111
0111011000110011001110110111
0001001010011100110000100111
0001000101001000011000111000
0001101111001110011100001100
0011111000111110000001001111
1101001000011110010100000010
1000110000111111001110000111
1110011111000000001011110001
1000001100100011101110011111
1001010001111011100000001011
1100011100011110000111001000
1100010101100000000111110001
1110010010001101110000011111
1110001001001000111111111110
0110001110000111000000000001
0000000000101011010011011000
1101010011101111000001110010
1101001011001000010100000011
0011000000001000111100100101
1111110000001000011111111010
1111110010111101111100100010
1101100100001000001111111100
1110011110000110000101111100
1100110000000011111110011100
1110101101111100000001101000
1111111000010000001101101110
0000011010100100000000011111
0001011101100000010000001001
0000001100111111000001100111
1111101000001010000100000011
1100011000100111100101100111
1110011011000010001110011001
1000100101111011100111111111
1000001000001011010000100011
1100100110011111000100000110
0110001100110000000110111100
0100000001100100000010111111
1000011000000011111111100001
0101101001000101011000001001
0000000010111000000101000001
1011100111011100000000000000
0011010011000011001000100100
0110100000000101111011101111
1100011001111001010001111001
1100011111000000101010100011
0010001111001100001101101001
1111000111100001111100000100
0011010000011111110000011110
0110110000011100000000100011
1111100111100000001111110101
0011111111000000001110000111
