0001111000111000011110000000
0010111111100000010000001000
0101011110111101011111011000
0011110011111001111100011000
1000111001000100001111110000
0001110111101111100001111110
1100001110001111000011110010
1011111011010001000101110000
1000000000000010100000010101
0000000011011111111000110111
1110000111110011100000001111
0000011001011100000011101110
0100110001111000001101111011
1001111000011111101011010011
1001110010011111101101111011
1001011111110001111001111111
0000000001111100001010111110
0011011111100001111111111000
1111101011101101011100111000
1011000011011101111100110010
1111000111000101110000001011
0100000000011100110100000010
0001000001100010110100011111
0001101000111111001100111111
0110000111001111110001001101
1110001111000010001111000000
1110010111111100101101000000
1011000111000011101110000001
1111110100010011000000011001
1000000100001100100110001111
1000111111111010100110000011
1000011000000100011000000111
0010011000111111111111001001
0101000111100000001111101000
0001110011111001101111010000
1111000111011011111110000000
1000110001111100001110011111
1111111010100000111100000000
1111110000001100100100011000
0000000001100000111100010000
0100011111010011000000000001
1100000100000100000010000001
1010001000000111100010000011
1000001110000011000000110011
1100001111111000000010011110
0110011000001000111101000000
1100001010000101010011111100
0000110101101111111101111110
0111100111100011010001000110
1101101000011111001010000111
1000100010110001111101001101
0011111110000011000001001100
0000110011110010011001101111
1010100100000111101111100011
1001111110001001101101000111
1100011011000111111000001111
1100001000011100000011001000
0000011011110011010001111100
1100011110000111010111110100
1111000001101001011111111000
1111000000011100100010010110
0000011101111010111101101000
1101001111100011111001001110
1111100001000100011110011011
1100001001011000010011101000
1100011011111011111001110110
1110001110010011001010000100
0110110000001101111011001000
0111111110000011000001000001
1110000011100000011000101000
1111001100011111000110000110
1111000101000111000011001000
1011110011110000011101110111
0111100000001111001100100011
0111110100011010011111100111
0101011011000001110001100111
1000001100000110000011110001
1010011111111111100001100111
1100001100110011011011000010
1111111011000100000111110000
0011111011100000010110100000
0011111110111100000001111110
0001111000011110001011111100
1101110111010000001001000000
1111101110011111100010000001
1100011101000000000110000000
0100001111101101101110100001
1000000111110010000010000001
1000000111101100000001111101
0011001011111011100101110111
1000001100000010010100101111
0110010000001101101111111100
0010011100011100111111011100
0100010111010000010001111000
0000011000001100011011111100
1100100111111010111110001000
0001110011110001111101110010
0111100010101111110100101001
1111000101110110110001101111
1101011101000011110001100111
0000001111111110011110011110
1111111000110000111110000000
0111111111110001011010011110
0010100100100111011110011000
0111001111100000001000000000
0111110100000000000000000000
0111101000000101000010000000
1000000111000010000000001000
1110001000011100000110010100
0000111011111011100100001000
1000011111100110110011110100
1011110000011100011110111000
0111011110000011000001111011
1110000001111010100111111111
1111111111111111110111011001
1011111000001110000001001000
1011010000110010000100011110
0000100000011100111100000101
1011000101100101010110011000
0000110100000010111000011001
1111111110001011100001011001
1100000100011111000011101111
1100110111111111101100000101
1101111101000011010001000101
0111111100000001111001000001
1100000100000011000011000000
0110111011111101101111010000
1001100111000011100111010001
